0000000000000000
0000000000000000
0000000000000000
0000000000000000
0000000000000000
0000000000000000
0000000000000000
0000000000000000
0009ff0de5f61206
ebe014f1f5defaf7
1b1ed8ee070810f1
0df6feef04d918fd
00f81cfb0ae8ea00
ddd9f4fe13180df9
000ae113ffebe8dc
0021020c1313dbe4
00680f12360d2935
de033a0b121e1b39
10facbe805f90b08
7ff1f4fe13f80ee8
00fa090028243900
e609dfcffefc21ed
0b1dd81606e2ff0e
e92420f2f4e5fbfd
00f31aff1808ed18
3bf6fa0b001cf20b
360bd5111edd0c00
00eed71c12ead2bd
00fcec1b47100100
16ec1a2607f7141f
11f4151c05162b06
fa1bf1fc1315db00
00040e031512d9df
1ed70ffc1af10add
29ead513e21b13eb
28210512eed81e08
00e40fdadfdcd600
15e3f4f2f20511e7
fd0918f5f7f9f1f6
0e12e405daf12320
003ffa13fbe906fc
e4fa1d0010061314
c6f2eb08ff0311e4
efd416d3de1a31c1
001fe30512f82400
df1c361fdaf926fd
2fe702331c161603
ff1028fef4071c0a
00cbd4f426cb0117
f0e5e61511d3f9d1
a4ed160cc806290d
302b16e8f4dc1a35
000e01e00e052000
fe401803ff202e1a
d50f46ff1c0df2db
fdcbd4e3101904d8
000bfcd6db04030e
423029d2022cf339
1909ea04d40cec27
fc0d3ccc04f1e600
00cded05f3f90800
1be3ef320e15ed00
f21a11ff28f8fce1
0b06c3fc0822bc16
002f05f8fa2e28df
f214e7f811080805
d7f0f7072ce0d900
c7ea15ee1bfff500
00d9e802080ae800
0ddad4e3bffe1615
12edfef429182d0f
2e0f282c220b0530
00a3e908f6ebf818
fce2f3ede909dc13
121cf5401d491e2f
7f072e2c11303b4c
00190d0714131600
fc0c002c0ce8fdd4
dd25fafbe5e9f725
daad0105e60e06dc
00f0f90c211d10e0
36f8eef6161f1a10
7b1dfbfa19342ddd
cee4e2f0060df4c1
00d812f5ebf2c300
f7f214eff1f8c825
ff10fe2006fb21fb
31f4de082a082106
002b090f05451c18
35dee6f6feda0ef4
31d61a08e0bcf615
02302f04130413f5
005839f21dfb3000
18ec1f100e01ec2b
e8121a14e5d6ea1e
e011e91120defbec
000e1a22fa01f102
430a341efe110a02
e11e31f2d91316fe
c118f92cf9f203f8
0001dc11ff0dfd00
d4f316d0fff51310
0f1f0e14fb1409dc
eaf31ff61407eae9
00f40a07ec18f3db
e31cd213e6e5fcf0
0bedf7f90ee8ecf4
ee21ec16f7d4de00
0006eae615e12100
25121612db1106fe
081decff0d1e1705
ed021af2e2eaf52e
001d0a04e7ff2ce8
8f28fbf624f4d84e
690df50ff5f5e9ed
742002e719fc064e
0004f6e428311000
1a3a001f0ac6c0da
190be93b20f0cd4e
18500df5f416063a
00e913d6e32ab8f0
00efbff0fdfaf7ef
fb31112f0cf02510
100419fa04ef3801
00f9ccf0ff10f300
00d1c2e830070ee6
00dcc1e7fe141827
00e7f9d9f04b3216
003cffb5fb3c3dcc
a6f41ddc02f2acd9
00edbf311fec9acd
0cf90d32c029457d
00fbc211f45cb0f8
1f933fcde4e44ab6
003443163ae116c4
33a229b7e8dcdae1
00eb09df03e62621
f2379518ca064aff
00f011ece5efa9e6
3ad98a4917cf138c
000bbd263442f5c1
caddd93dd61c81f2
00c94d09f738a433
c2f9ce25ba370500
00bcd22e03fcb14a
dcf81e1d1125852f
000e0ed00fd6e5a2
371e29db0f30c9e5
