0000000000000000
0000000000000000
0000000000000000
0000000000000000
0000000000000000
0000000000000000
0000000000000000
0000000000000000
0612f6e50dff0900
f7fadef5f114e0eb
f1100807eed81e1b
fd18d904effef60d
00eae80afb1cf800
f90d1813fef4d9dd
dce8ebff13e10a00
e4db13130c022100
35290d36120f6800
391b1e120b3a03de
080bf905e8cbfa10
e80ef813fef4f17f
003924280009fa00
ed21fcfecfdf09e6
0effe20616d81d0b
fdfbe5f4f22024e9
18ed0818ff1af300
0bf21c000bfaf63b
000cdd1e11d50b36
bdd2ea121cd7ee00
000110471becfc00
1f14f707261aec16
062b16051c15f411
00db1513fcf11bfa
dfd91215030e0400
dd0af11afc0fd71e
eb131be213d5ea29
081ed8ee12052128
00d6dcdfda0fe400
e71105f2f2f4e315
f6f1f9f7f51809fd
2023f1da05e4120e
fc06e9fb13fa3f00
14130610001dfae4
e41103ff08ebf2c6
c1311aded316d4ef
0024f81205e31f00
fd26f9da1f361cdf
0316161c3302e72f
0a1c07f4fe2810ff
1701cb26f4d4cb00
d1f9d31115e6e5f0
0d2906c80c16eda4
351adcf4e8162b30
0020050ee0010e00
1a2e20ff031840fe
dbf20d1cff460fd5
d8041910e3d4cbfd
0e0304dbd6fc0b00
39f32c02d2293042
27ec0cd404ea0919
00e6f104cc3c0dfc
0008f9f305edcd00
00ed150e32efe31b
e1fcf828ff111af2
16bc2208fcc3060b
df282efaf8052f00
05080811f8e714f2
00d9e02c07f7f0d7
00f5ff1bee15eac7
00e80a0802e8d900
1516febfe3d4da0d
0f2d1829f4feed12
30050b222c280f2e
18f8ebf608e9a300
13dc09e9edf3e2fc
2f1e491d40f51c12
4c3b30112c2e077f
00161314070d1900
d4fde80c2c000cfc
25f7e9e5fbfa25dd
dc060ee60501adda
e0101d210cf9f000
101a1f16f6eef836
dd2d3419fafb1d7b
c1f40d06f0e2e4ce
00c3f2ebf512d800
25c8f8f1ef14f2f7
fb21fb0620fe10ff
0621082a08def431
181c45050f092b00
f40edafef6e6de35
15f6bce0081ad631
f5130413042f3002
0030fb1df2395800
2bec010e101fec18
1eead6e5141a12e8
ecfbde2011e911e0
02f101fa221a0e00
020a11fe1e340a43
fe1613d9f2311ee1
f803f2f92cf918c1
00fd0dff11dc0100
1013f5ffd016f3d4
dc0914fb140e1f0f
e9ea0714f61ff3ea
dbf318ec070af400
f0fce5e613d21ce3
f4ece80ef9f7ed0b
00ded4f716ec21ee
0021e115e6ea0600
fe0611db12161225
05171e0dffec1d08
2ef5eae2f21a02ed
e82cffe7040a1d00
4ed8f424f6fb288f
ede9f5f50ff50d69
4e06fc19e7022074
00103128e4f60400
dac0c60a1f003a1a
4ecdf0203be90b19
3a0616f4f50d5018
f0b82ae3d613e900
eff7fafdf0bfef00
1025f00c2f1131fb
0138ef04fa190410
00f310fff0ccf900
e60e0730e8c2d100
271814fee7c1dc00
16324bf0d9f9e700
cc3d3cfbb5ff3c00
d9acf202dc1df4a6
cd9aec1f31bfed00
7d4529c0320df90c
f8b05cf411c2fb00
b64ae4e4cd3f931f
c416e13a16433400
e1dadce8b729a233
2126e603df09eb00
ff4a06ca189537f2
e6a9efe5ec11f000
8c13cf17498ad93a
c1f5423426bd0b00
f2811cd63dd9ddca
33a438f7094dc900
000537ba25cef9c2
4ab1fc032ed2bc00
2f8525111d1ef8dc
a2e5d60fd00e0e00
e5c9300fdb291e37
